TRT-8502-EntropyCalibration2
images: 3ecf474c
/model.0/conv/Conv_output_0: 420dd23e
/model.0/act/Sigmoid_output_0: 3c010a14
/model.0/act/Mul_output_0: 4202ffd1
/model.1/conv/Conv_output_0: 42b4e809
/model.1/act/Sigmoid_output_0: 3c010a14
/model.1/act/Mul_output_0: 4295fa4a
/model.2/cv1/conv/Conv_output_0: 4284f623
/model.2/cv1/act/Sigmoid_output_0: 3c010a14
/model.2/cv1/act/Mul_output_0: 42062752
/model.2/Split_output_0: 42062752
/model.2/Split_output_1: 41973b8f
/model.2/m.0/cv1/conv/Conv_output_0: 428b0662
/model.2/m.0/cv1/act/Sigmoid_output_0: 3c010a14
/model.2/m.0/cv1/act/Mul_output_0: 42682ca7
/model.2/m.0/cv2/conv/Conv_output_0: 424a7dde
/model.2/m.0/cv2/act/Sigmoid_output_0: 3c010a14
/model.2/m.0/cv2/act/Mul_output_0: 420c1620
/model.2/m.0/Add_output_0: 420c5c84
/model.2/Concat_output_0: 4206099d
/model.2/cv2/conv/Conv_output_0: 41abdf9b
/model.2/cv2/act/Sigmoid_output_0: 3c010a14
/model.2/cv2/act/Mul_output_0: 4040f835
/model.3/conv/Conv_output_0: 40183053
/model.3/act/Sigmoid_output_0: 3c010a14
/model.3/act/Mul_output_0: 3fc2f522
/model.4/cv1/conv/Conv_output_0: 400a0420
/model.4/cv1/act/Sigmoid_output_0: 3c010a14
/model.4/cv1/act/Mul_output_0: 3f938203
/model.4/Split_output_0: 401163bc
/model.4/Split_output_1: 3f19e761
/model.4/m.0/cv1/conv/Conv_output_0: 3ff5dd09
/model.4/m.0/cv1/act/Sigmoid_output_0: 3c010a14
/model.4/m.0/cv1/act/Mul_output_0: 3f01d27e
/model.4/m.0/cv2/conv/Conv_output_0: 3f6d010b
/model.4/m.0/cv2/act/Sigmoid_output_0: 3c010a14
/model.4/m.0/cv2/act/Mul_output_0: 3f2c2218
/model.4/m.0/Add_output_0: 3fa99858
/model.4/m.1/cv1/conv/Conv_output_0: 3fce9b54
/model.4/m.1/cv1/act/Sigmoid_output_0: 3bc21428
/model.4/m.1/cv1/act/Mul_output_0: 3ea0987b
/model.4/m.1/cv2/conv/Conv_output_0: 3f7c69f0
/model.4/m.1/cv2/act/Sigmoid_output_0: 3c010a14
/model.4/m.1/cv2/act/Mul_output_0: 3eb59268
/model.4/m.1/Add_output_0: 3fa598e2
/model.4/Concat_output_0: 3f938203
/model.4/cv2/conv/Conv_output_0: 3f9c7dab
/model.4/cv2/act/Sigmoid_output_0: 3c010a14
/model.4/cv2/act/Mul_output_0: 3f319d51
/model.5/conv/Conv_output_0: 3faf0d20
/model.5/act/Sigmoid_output_0: 3c010a14
/model.5/act/Mul_output_0: 3ee2e429
/model.6/cv1/conv/Conv_output_0: 3fbd9773
/model.6/cv1/act/Sigmoid_output_0: 3c010a14
/model.6/cv1/act/Mul_output_0: 3f25f2fc
/model.6/Split_output_0: 3fa6702d
/model.6/Split_output_1: 3e977eba
/model.6/m.0/cv1/conv/Conv_output_0: 3fbe3208
/model.6/m.0/cv1/act/Sigmoid_output_0: 3c010a14
/model.6/m.0/cv1/act/Mul_output_0: 3e1662d9
/model.6/m.0/cv2/conv/Conv_output_0: 3f368025
/model.6/m.0/cv2/act/Sigmoid_output_0: 3c010a14
/model.6/m.0/cv2/act/Mul_output_0: 3ea168b8
/model.6/m.0/Add_output_0: 3f1a108c
/model.6/m.1/cv1/conv/Conv_output_0: 3fb2a2c3
/model.6/m.1/cv1/act/Sigmoid_output_0: 3c010a14
/model.6/m.1/cv1/act/Mul_output_0: 3d9e9f9b
/model.6/m.1/cv2/conv/Conv_output_0: 3f231641
/model.6/m.1/cv2/act/Sigmoid_output_0: 3c010a14
/model.6/m.1/cv2/act/Mul_output_0: 3e8b8efd
/model.6/m.1/Add_output_0: 3f8c1453
/model.6/Concat_output_0: 3f50fc2e
/model.6/cv2/conv/Conv_output_0: 3fadf37b
/model.6/cv2/act/Sigmoid_output_0: 3c010a14
/model.6/cv2/act/Mul_output_0: 3e96fef6
/model.7/conv/Conv_output_0: 3fd1b20a
/model.7/act/Sigmoid_output_0: 3c010a14
/model.7/act/Mul_output_0: 3e9b17da
/model.8/cv1/conv/Conv_output_0: 3ff22799
/model.8/cv1/act/Sigmoid_output_0: 3c010a14
/model.8/cv1/act/Mul_output_0: 3f5ee027
/model.8/Split_output_0: 3f5ee027
/model.8/Split_output_1: 3eb252f1
/model.8/m.0/cv1/conv/Conv_output_0: 40095ad1
/model.8/m.0/cv1/act/Sigmoid_output_0: 3c010a14
/model.8/m.0/cv1/act/Mul_output_0: 3ecd7fe6
/model.8/m.0/cv2/conv/Conv_output_0: 4007b0ce
/model.8/m.0/cv2/act/Sigmoid_output_0: 3c010a14
/model.8/m.0/cv2/act/Mul_output_0: 3f083e2b
/model.8/m.0/Add_output_0: 3ebd4cdd
/model.8/Concat_output_0: 3f1418ce
/model.8/cv2/conv/Conv_output_0: 3fd0ccb1
/model.8/cv2/act/Sigmoid_output_0: 3c010a14
/model.8/cv2/act/Mul_output_0: 3e9b56fb
/model.9/cv1/conv/Conv_output_0: 3f881be0
/model.9/cv1/act/Sigmoid_output_0: 3c010a14
/model.9/cv1/act/Mul_output_0: 3efe47bf
/model.9/m/MaxPool_output_0: 3efe47bf
/model.9/m_1/MaxPool_output_0: 3efe47bf
/model.9/m_2/MaxPool_output_0: 3efe47bf
/model.9/Concat_output_0: 3f4acff9
/model.9/cv2/conv/Conv_output_0: 3f74cef3
/model.9/cv2/act/Sigmoid_output_0: 3c010a14
/model.9/cv2/act/Mul_output_0: 3e199fa0
/model.10/Resize_output_0: 3e199fa0
/model.11/Concat_output_0: 3e96fef6
/model.12/cv1/conv/Conv_output_0: 3f97f588
/model.12/cv1/act/Sigmoid_output_0: 3c010a14
/model.12/cv1/act/Mul_output_0: 3ec25307
/model.12/Split_output_0: 3ec25307
/model.12/Split_output_1: 3e250e9d
/model.12/m.0/cv1/conv/Conv_output_0: 3f4cb16a
/model.12/m.0/cv1/act/Sigmoid_output_0: 3c010a14
/model.12/m.0/cv1/act/Mul_output_0: 3dcb2da7
/model.12/m.0/cv2/conv/Conv_output_0: 3f1f25cb
/model.12/m.0/cv2/act/Sigmoid_output_0: 3c010a14
/model.12/m.0/cv2/act/Mul_output_0: 3e7dba8d
/model.12/Concat_output_0: 3ec25307
/model.12/cv2/conv/Conv_output_0: 3f48d07f
/model.12/cv2/act/Sigmoid_output_0: 3c010a14
/model.12/cv2/act/Mul_output_0: 3e1a641d
/model.13/Resize_output_0: 3e1a641d
/model.14/Concat_output_0: 3eb27422
/model.15/cv1/conv/Conv_output_0: 3f5b84ba
/model.15/cv1/act/Sigmoid_output_0: 3c010a14
/model.15/cv1/act/Mul_output_0: 3ef8c86b
/model.15/Split_output_0: 3ef8c86b
/model.15/Split_output_1: 3e8b1e1b
/model.15/m.0/cv1/conv/Conv_output_0: 3f5425db
/model.15/m.0/cv1/act/Sigmoid_output_0: 3c010a14
/model.15/m.0/cv1/act/Mul_output_0: 3eaf3126
/model.15/m.0/cv2/conv/Conv_output_0: 3f16bb96
/model.15/m.0/cv2/act/Sigmoid_output_0: 3c010a14
/model.15/m.0/cv2/act/Mul_output_0: 3eaad50f
/model.15/Concat_output_0: 3ef9c1af
/model.15/cv2/conv/Conv_output_0: 3f34b0ec
/model.15/cv2/act/Sigmoid_output_0: 3c010a14
/model.15/cv2/act/Mul_output_0: 3f1dce2a
/model.16/conv/Conv_output_0: 3f6d4da1
/model.16/act/Sigmoid_output_0: 3c010a14
/model.16/act/Mul_output_0: 3f1eb7c3
/model.17/Concat_output_0: 3f1eb7c3
/model.18/cv1/conv/Conv_output_0: 3f9ac123
/model.18/cv1/act/Sigmoid_output_0: 3c010a14
/model.18/cv1/act/Mul_output_0: 3f0479f6
/model.18/Split_output_0: 3f0479f6
/model.18/Split_output_1: 3eeeebe1
/model.18/m.0/cv1/conv/Conv_output_0: 3f8e32d6
/model.18/m.0/cv1/act/Sigmoid_output_0: 3c010a14
/model.18/m.0/cv1/act/Mul_output_0: 3dc2fda1
/model.18/m.0/cv2/conv/Conv_output_0: 3f976dce
/model.18/m.0/cv2/act/Sigmoid_output_0: 3c010a14
/model.18/m.0/cv2/act/Mul_output_0: 3e98b897
/model.18/Concat_output_0: 3f05847a
/model.18/cv2/conv/Conv_output_0: 3f35beec
/model.18/cv2/act/Sigmoid_output_0: 3c010a14
/model.18/cv2/act/Mul_output_0: 3e9b613f
/model.19/conv/Conv_output_0: 3f389c20
/model.19/act/Sigmoid_output_0: 3c010a14
/model.19/act/Mul_output_0: 3eb0d5bd
/model.20/Concat_output_0: 3eb8ca6b
/model.21/cv1/conv/Conv_output_0: 3fb5d524
/model.21/cv1/act/Sigmoid_output_0: 3c010a14
/model.21/cv1/act/Mul_output_0: 3ea004db
/model.21/Split_output_0: 3ea004db
/model.21/Split_output_1: 3dc096a2
/model.21/m.0/cv1/conv/Conv_output_0: 3f669506
/model.21/m.0/cv1/act/Sigmoid_output_0: 3c010a14
/model.21/m.0/cv1/act/Mul_output_0: 3dd06a73
/model.21/m.0/cv2/conv/Conv_output_0: 3f1ed11c
/model.21/m.0/cv2/act/Sigmoid_output_0: 3c010a14
/model.21/m.0/cv2/act/Mul_output_0: 3e9f041c
/model.21/Concat_output_0: 3ea004db
/model.21/cv2/conv/Conv_output_0: 3f6eef79
/model.21/cv2/act/Sigmoid_output_0: 3c010a14
/model.21/cv2/act/Mul_output_0: 3dd33bc8
/model.22/cv2.0/cv2.0.0/conv/Conv_output_0: 3faac678
/model.22/cv2.0/cv2.0.0/act/Sigmoid_output_0: 3c010a14
/model.22/cv2.0/cv2.0.0/act/Mul_output_0: 3e986525
/model.22/cv2.0/cv2.0.1/conv/Conv_output_0: 400b977f
/model.22/cv2.0/cv2.0.1/act/Sigmoid_output_0: 3c010a14
/model.22/cv2.0/cv2.0.1/act/Mul_output_0: 3fbc2ade
/model.22/cv2.0/cv2.0.2/Conv_output_0: 3fff786a
/model.22/cv3.0/cv3.0.0/conv/Conv_output_0: 3f948af1
/model.22/cv3.0/cv3.0.0/act/Sigmoid_output_0: 3c010a14
/model.22/cv3.0/cv3.0.0/act/Mul_output_0: 3eb8158c
/model.22/cv3.0/cv3.0.1/conv/Conv_output_0: 4044bca5
/model.22/cv3.0/cv3.0.1/act/Sigmoid_output_0: 3c010a14
/model.22/cv3.0/cv3.0.1/act/Mul_output_0: 3ffb51e6
/model.22/cv3.0/cv3.0.2/Conv_output_0: 3f627bcc
/model.22/Concat_output_0: 3f7ac8d9
/model.22/cv2.1/cv2.1.0/conv/Conv_output_0: 3f92ff55
/model.22/cv2.1/cv2.1.0/act/Sigmoid_output_0: 3c010a14
/model.22/cv2.1/cv2.1.0/act/Mul_output_0: 3ea751db
/model.22/cv2.1/cv2.1.1/conv/Conv_output_0: 3fb1d548
/model.22/cv2.1/cv2.1.1/act/Sigmoid_output_0: 3c010a14
/model.22/cv2.1/cv2.1.1/act/Mul_output_0: 3ef48b63
/model.22/cv2.1/cv2.1.2/Conv_output_0: 3f6a7644
/model.22/cv3.1/cv3.1.0/conv/Conv_output_0: 3f62b190
/model.22/cv3.1/cv3.1.0/act/Sigmoid_output_0: 3c010a14
/model.22/cv3.1/cv3.1.0/act/Mul_output_0: 3e99271c
/model.22/cv3.1/cv3.1.1/conv/Conv_output_0: 4043fa19
/model.22/cv3.1/cv3.1.1/act/Sigmoid_output_0: 3c010a14
/model.22/cv3.1/cv3.1.1/act/Mul_output_0: 40034277
/model.22/cv3.1/cv3.1.2/Conv_output_0: 3fc3d426
/model.22/Concat_1_output_0: 3fdde52c
/model.22/cv2.2/cv2.2.0/conv/Conv_output_0: 3f327f37
/model.22/cv2.2/cv2.2.0/act/Sigmoid_output_0: 3c010a14
/model.22/cv2.2/cv2.2.0/act/Mul_output_0: 3e0d2f60
/model.22/cv2.2/cv2.2.1/conv/Conv_output_0: 3fc69e0a
/model.22/cv2.2/cv2.2.1/act/Sigmoid_output_0: 3c010a14
/model.22/cv2.2/cv2.2.1/act/Mul_output_0: 3eca8b8b
/model.22/cv2.2/cv2.2.2/Conv_output_0: 3f77e652
/model.22/cv3.2/cv3.2.0/conv/Conv_output_0: 3f896853
/model.22/cv3.2/cv3.2.0/act/Sigmoid_output_0: 3c010a14
/model.22/cv3.2/cv3.2.0/act/Mul_output_0: 3eacfbc6
/model.22/cv3.2/cv3.2.1/conv/Conv_output_0: 402e5dd9
/model.22/cv3.2/cv3.2.1/act/Sigmoid_output_0: 3c010a14
/model.22/cv3.2/cv3.2.1/act/Mul_output_0: 3ffad8d4
/model.22/cv3.2/cv3.2.2/Conv_output_0: 3fc93c3f
/model.22/Concat_2_output_0: 3fe32785
/model.22/Reshape_output_0: 3f7ac8d9
/model.22/Reshape_1_output_0: 3fdde52c
/model.22/Reshape_2_output_0: 3fe32785
/model.22/Concat_6_output_0: 3f8d22f8
(Unnamed Layer* 303) [Constant]_output: 3e810a14
/model.22/Split_output_0: 3d810a14
/model.22/Split_output_1: 3e010a14
/model.22/Split_output_2: 3e810a14
/model.22/Range_output_0: 3f1f4871
(Unnamed Layer* 327) [Shuffle]_output: 3c010a14
(Unnamed Layer* 329) [Shuffle]_output: 3b810a14
/model.22/Add_output_0: 3f204a85
/model.22/Range_1_output_0: 3f1f4871
(Unnamed Layer* 342) [Shuffle]_output: 3c010a14
(Unnamed Layer* 344) [Shuffle]_output: 3b810a14
/model.22/Add_1_output_0: 3f204a85
/model.22/Reshape_5_output_0: 3f204a85
/model.22/Expand_output_0: 3f204a85
/model.22/Reshape_6_output_0: 3f204a85
/model.22/Expand_1_output_0: 3f204a85
/model.22/Unsqueeze_3_output_0: 3f204a85
/model.22/Unsqueeze_4_output_0: 3f204a85
/model.22/Concat_10_output_0: 3f204a85
/model.22/Reshape_7_output_0: 3f204a85
(Unnamed Layer* 395) [Constant]_output: 0
(Unnamed Layer* 396) [Shuffle]_output: 0
/model.22/ConstantOfShape_output_0: 0
(Unnamed Layer* 399) [Shuffle]_output: 3d810a14
/model.22/Add_2_output_0: 3d810a14
/model.22/Range_2_output_0: 3e9d4449
(Unnamed Layer* 418) [Shuffle]_output: 3c010a14
(Unnamed Layer* 420) [Shuffle]_output: 3b810a14
/model.22/Add_3_output_0: 3e9f4871
/model.22/Range_3_output_0: 3e9d4449
(Unnamed Layer* 433) [Shuffle]_output: 3c010a14
(Unnamed Layer* 435) [Shuffle]_output: 3b810a14
/model.22/Add_4_output_0: 3e9f4871
/model.22/Reshape_10_output_0: 3e9f4871
/model.22/Expand_2_output_0: 3e9f4871
/model.22/Reshape_11_output_0: 3e9f4871
/model.22/Expand_3_output_0: 3e9f4871
/model.22/Unsqueeze_6_output_0: 3e9f4871
/model.22/Unsqueeze_7_output_0: 3e9f4871
/model.22/Concat_15_output_0: 3e9f4871
/model.22/Reshape_12_output_0: 3e9f4871
(Unnamed Layer* 486) [Constant]_output: 0
(Unnamed Layer* 487) [Shuffle]_output: 0
/model.22/ConstantOfShape_1_output_0: 0
(Unnamed Layer* 490) [Shuffle]_output: 3e010a14
/model.22/Add_5_output_0: 3e010a14
/model.22/Range_4_output_0: 3e193bf8
(Unnamed Layer* 509) [Shuffle]_output: 3c010a14
(Unnamed Layer* 511) [Shuffle]_output: 3b810a14
/model.22/Add_6_output_0: 3e1d4449
/model.22/Range_5_output_0: 3e193bf8
(Unnamed Layer* 524) [Shuffle]_output: 3c010a14
(Unnamed Layer* 526) [Shuffle]_output: 3b810a14
/model.22/Add_7_output_0: 3e1d4449
/model.22/Reshape_15_output_0: 3e1d4449
/model.22/Expand_4_output_0: 3e1d4449
/model.22/Reshape_16_output_0: 3e1d4449
/model.22/Expand_5_output_0: 3e1d4449
/model.22/Unsqueeze_9_output_0: 3e1d4449
/model.22/Unsqueeze_10_output_0: 3e1d4449
/model.22/Concat_20_output_0: 3e1d4449
/model.22/Reshape_17_output_0: 3e1d4449
(Unnamed Layer* 577) [Constant]_output: 0
(Unnamed Layer* 578) [Shuffle]_output: 0
/model.22/ConstantOfShape_2_output_0: 0
(Unnamed Layer* 581) [Shuffle]_output: 3e810a14
/model.22/Add_8_output_0: 3e810a14
/model.22/Concat_22_output_0: 3f204a85
/model.22/Concat_23_output_0: 3e810a14
/model.22/Transpose_output_0: 3f204a85
/model.22/Transpose_1_output_0: 3e810a14
/model.22/Split_1_output_0: 3fff786a
/model.22/Split_1_output_1: 3fa2d549
/model.22/dfl/Reshape_output_0: 3fff786a
/model.22/dfl/Transpose_output_0: 3fff786a
(Unnamed Layer* 610) [Softmax]_output: 3b8ce9d4
/model.22/dfl/conv/Conv_output_0: 3df02d3f
/model.22/dfl/Reshape_1_output_0: 3df02d3f
/model.22/Unsqueeze_12_output_0: 3f204a85
/model.22/Slice_output_0: 3dc74f89
/model.22/Slice_1_output_0: 3df0c55d
/model.22/Sub_output_0: 3f1ff316
/model.22/Add_10_output_0: 3f219c81
/model.22/Add_11_output_0: 3fa09814
(Unnamed Layer* 693) [Shuffle]_output: 3c810a14
/model.22/Div_1_output_0: 3f209814
/model.22/Sub_1_output_0: 3e706d1f
/model.22/Concat_24_output_0: 3f209814
(Unnamed Layer* 700) [Shuffle]_output: 3e810a14
/model.22/Mul_5_output_0: 40acca2d
/model.22/Sigmoid_output_0: 3c010a14
output0: 40a0b02d
